--Memory Initialization File

DEPTH = 96;
WIDTH = 432;
ADDRESS_RADIX = DEC;
DATA_RADIX = BIN;
CONTENT BEGIN

00 : 000000001000000011100111100110001000000111000000110111110100111000000101000000000000010111100111000000000000001000001111100100011010010110100111000000111100111000001111111111110000000000111001001111000111000111000000111000000000000000100100111001111100010000000100000111101111110000110000000000010110101000100100011110000010111010000110100111111000111111111000000110000010110000110111000001011000000010000110110111110110000000000000;
01 : 001101001110010100100110100100100011000000000011010000000111111111111111010000000010000010111110111111111000011111111011010000011001000011101000010000010111111011000000000001111000000000010001011011000000001000000011000000000000000011001000000011011000011001000101100101111001001111100111000000110011111001011100101100100100000000000110111111010010110000011001000010000000010000000110100000110000101111111101101111001111111000010000;
02 : 001001000000011011000001111000000000111111111000011111000111100000110110001000111100100000111111111000000111000000100110111111110110111110110111001101101000000111001001011000010111111111001100110110000100111011111000111111111001001000110110110000000111101111111000001001100110111000100100011001001111111000011011011111111011011001001000000000111111011111001111000000111111111111001000001000110111000011000010010010110010111111101111;
03 : 111111111000111111010010010111111111111101000011011000000011111110000111100111111101001000111111111011111011000000000000011001000001111110000010111111100010110000000000000001011111111111101111111111111111111101110101011111011011111111000001111110000111001111111000001111000000111111101111111100111111111111100100111001000111101111001001010110000000000000000111111111000000111110000111111000111100110010111111000001011110111110111011;
04 : 000001001000000111111110110100111111000000000101001000000111111111111111000010000010010000110110111011011000111111111000001000011000000011000100010000001011011000010011001000110100000000000000000011001000000110111111000000000000100011000000000111111000001001100101100110011011001111111111110110111011011001111110001100100100000000000000111111000110110000111111011011000000000000000110110110110000101100111111100010101110111010010000;
05 : 011000000001111100100110111000011111000100111110000000000000111001011011111111111011000000100110011111011011110000000000000111011111001111101000111110110000001010000000111000100111111100000000000011110000000000100100000011000000100111101111101000000111010000110111111110000000111111111111000111111000000111000000111101111110000111111111011000110111111010010111100110100001111111010110111001000110011111111111010000110000100111011111;
06 : 001000000001011011011001001000000111111101101111110000000000000011011111001111111010111000011011111111000000010000000111110100000111111011111010111111001010000000011000000111111111111111000000001000100000101000001111001000010000000010111111111100000010100111011100101000010010111111111111011001111000000000001011000011111111100000100000000000100000001010000000011001000111100100110000110011011111001000100111000010110100111001100101;
07 : 100000000001000101111100000111010000100000001000111111000000000000000011000000001110110100000111111000000000000000000100000100111110111111100100000111111000000000111111111111111111000001111100100000111111100111111011011011111110000000110110111101100100100000111011010000001001001000000011101111111000000011000110011001001011111100101000000000101111110111110010111100000111111101111000000111111011011111111010010000100100100111111100;
08 : 100111000000001111100110000100110010111000000011011000111101010011001011000010111010010111111001111000010000000100000000111011000000111010111111000111111111000000111011000000010010010011111110111111111011000011000100110000000111000000001010111001000000000000001110100111011011001000111111111000100111000000110011001101100101110000000000101000000010111010010000110110000111110000000010000111111000111111111110000000110000000010010000;
09 : 000111111000001011011000000000110111010000000111111010001011111110111111110010110100100101100100111011010011000100110110101001000001111101100000111110111000000000010011011100000000111000101011111111111000000001100111110110000000110110100100100000000001000001011111011111011011011111111111000000111111110110100100111111000100000000100111100101101000001110010001110100000110110110010010001000000000011000110111011011000110110000000000;
10 : 111011111111011111111111111111001000010111111000001000101000111000000001111011000011100111000111000010010000000101111111111000100100000111111001000110111100110000100001111011111000010000111110100111000111000111000011111111000111111001011000000000011000001000000001001111001111111000000000111100100100111000000100100111000000111111000111101111000000001000101000011111010111111000100111001111111000000001000000001111000111000111111000;
11 : 111011000111101111110111111100101111111100000100110111111011000111010000111101111000110100111111000011101000111111001111000000000000111100000111111000000000111111111010000010110111111001000111000000011110111111011010000100111010111111000000110111110110111010000101011000111111100111001000011011000010111111111011000000000000101001011000000000000000011111000100111110111000000111000011011111000111101001000111111000111111101000000111;
12 : 001000000011101101100100110000000000001000000101101111111111110001001000000010001000000000110110111101111111111000000111111111000101001000000110110111111000000111111100100111111111000000010011001001111001011000000000000001111000000000000100101111111111111101111000110000111101000010111010000000000110000111111000010000101100100000100000011001100110111111010000000000110111001001011001000100000111000011011010110100111000111001001111;
13 : 100001001000111000111000000111000000000000111011001111111101111010110000010000000010010101000111000001001111111110110111000001110110000010111111000111111101111000011101111100111000000000111111111011111111000000010000111001011111000000110110010111111000101000111111111000111111000000011000111011000111110000111111000000111111111000001001100111001011000111111000101100111100001000011011000100101001000111100010111110111010000111001111;
14 : 001001000011000000100000100100110000000000001001000001111110100001001000100000000000000100000001011110111111011111011111111000111111001111000000100101100100111111100111110000100100000000110011001000000100100000011000100111111000101101001111111100111111111111110100100000000100101000110000000111111111111111000001000100100000011011011011011011011011011100100111111101111001011111110111111000011111100110110000000000001111111111111111;
15 : 101011000111111000000110111000111111111100100111110001000000010111110000000111111110110000101111000101000011011000000000101001111110110000001111111100000110011111011000000001001011111111000000000100100000110000111000000000111111110100111111111111000001000111101001110000111001011111111000111110000000110111011111000001101111100000111000000000110111111000011111100000111100000111001001111001001111100111110001001100000000100111100111;
16 : 101101111111000000001111111100101001001000111000001111111111111111010000111000000111101111111010000110000100010111111111111000111011000011000000000100111000111111100111111000000101110000000111011000000001111011010000000001111101111111000001001000100111111101100010011010001100100110000000111111111000111111101100000000000000001101111010000000011111111101111111001100101100111111000111111001001111111010000111101111100110110000000101;
17 : 111101100000111111011010010111000000111101000111011000111000000001000011000101111000111111101001111001110000000000000111011000000000111100000000000111101000000000111000001000000000111101000001111111111111000111000101111010000100000000000100111011000000000001011000000111110110111111101111111110111111000000111101111011000111011110000000100000000000001111010000011011000111111000000000110111111010100000011110000111111100000110111000;
18 : 001000000111111110000101111010000011110101111101101101000000000110111000111101111101111000001111010111100111010000000010000000011111101011100000111001000111011001100000000111111111111111000111011000001111111001111000000000111000000010000111111111100111111111100100111000111111111000000000100110010000000000011000000000101000100101111000011000000000001111001111111111111000000111101111111101101111111111000000100100111001111010001111;
19 : 111111011111001001010000110111010000001111011111001000111100100000110110000001111101000101000111111010001111000100110011111111111010110011110110000111111001000000111111110111111011000101111111111111011001011110000110111011111111010000000000011000110111111111111000000000011001001000110110111000001000100000100000000000001111111001111000100111111111100111101000111000111111111001111011000100111111000010000010010000000011111111111011;
20 : 111111111111111111111011000000001000111111000000000111011001111000000111110000000000001111111111010101111100111111111000111111000110000110000111011111111000110000001000001011111001100100111110000111001000000111001011111111000100100000111110000111111000100010011011001111111111110111011000010011011111011000111111111111101101100110000111111111001000011100111000000100100011001000000101111111111000100100001010000011011011000111111000;
21 : 000000011111111001111011000010111000000001101000000000000000110000011111100100101111100100000110111110100110000001011000110100111011111111111000000100111111101010000100111100011001110001111000111111000100100111111111000000000000101011111001001100110010100100111001001111001011101000100111000100111000111111100110111101001011110110111110110111111111101101110110111110000000110000111101111000000001000000011011000011000000100000000000;
22 : 111010000111101000111000011011000000111100111100000000010010000000000000000001111100000000000100000000000001000000000000000001000111111111111111100110000000000101111011000010110111000111110000011000000100111100100100000000111111000110000101111111001000000000000000000000111001111000111011000000111000000111000010110000000010010000111010011000000000000000000111111101101000000111000000111001001111000000110000000010111000111000000111;
23 : 011000000101001111001000101111010111110011000111111000100000000011000000001001111111111001101001000000001111000100000000000000000010111000000000001011000111001001111000000111111111101111010011000000001111111111011000001011110000110100000111111001000111001001010111001000011001111110000000000011000011001000000001000001111100100101111000000000011000000110000101111100100110111111110111111011011111111111000110110010100011111000100111;
24 : 111000000111001011000111111000000111011000001111100000000000000110110000011111111100110000111000000111111011000000000111011011111111111111000000111000000000000111001000000000110111111110000000000000111001111000110111000001111000000111111111111111000111001111011111110000111011111111111100111111111000000111111010000100110000000011011000000000011011001110000011011010111111000111111001001111111111111000000111110000010000111001000111;
25 : 000100111111100000111110010001011011000000010010110110111001011010001011010011011011010000000000011000000000111111111001011011110110000111111110001011011111110110010110100101000000001101000111111011100000000100101001111111000000000111111111110011000000000000000111011011010000000101001101000000000010111111000010111011111111110110010111111101111111110000011000010000000001000000001000000111110000110111011000000010000000010110110110;
26 : 000010111111111111100000001111000000000001110011111110100111111101001111000011000110100100111111111000000011000111001000000000111010111000011010000011111111110000000001101111110000000000111000001111000000000111101111110001000111101000110010100000011011001111111000000111011011001000111111100000101111001000111111111000100111111111000100110111011001011111111000110111000111000000101000000110010000000011111100000111000111111111111000;
27 : 111111011010000100000000110110000000011000111111101111111111110111111000000010110111111100111101000000111111111111000111111100000100100010000000101101100100100100111111100101100000000100000111000000111111111100000000111111101111001011000100111101101111111101000110110000011111111110111000111111000111010110111000000000000000100100111000000000100111111111111111001000111111111111111000000111111111110000000000111000001101111111001101;
28 : 100000000011000111110111111110111111000000111101000000000111000000110000011111100111000000001110001101100100111011000001001111111101111000011000000000000000111111111010000000111111111110000001111001001000111000111011001111111111110010000111111011000011110111011111101000000110110000000000111000000000111111000100100000101101000000101111011000001001001000110111110011111001001111001001111111000111101100111111100000000100111111001011;
29 : 000001001000000000111001100111000001111000111101110110111111110100110000001011111111111111011000000001001100000111010111111000110100110110000000111111111010111111111111111001000101000000000111111000000101111000000010000000111111111011100001111100111100111111111111100000001100101000000000111111001110110110111001001011000000111011111000000000010110110111110111001001111111111111000010000011100111110000000110110000111100101011110110;
30 : 000100111000000111000010011000110111011011000011010010000110111000001111111111111000000000001100111000001001000001100000001100000000111100000000111011000000000101000000000111001000111000000101101110011111111111100101111111001000110111111110000000000011000011011111111111000000111101111111100111111110100111000101111111111111000111100111111000000010110000000111010000000000101000000001111111011001111000111000111111100111111000110011;
31 : 111111101011000110111111111101111111110100100100000000000010011101001001110000001111111011100100111111110000110011011010010000001001111111101101111000000000111110100100000011100110111111000000000000011100100100111111111111000000100111001101001111011000100000000111111101101101100111111111110011111110101111110100111111010011011111100000011001010010000000110111110110000000110000000110111111100000111101011111111101111111100000100000;
32 : 110110111000000000100101000111111010111000010110110011111111111000100111010010000001000111000100111011011000111101111111111101111111101111101111000000100111111010100101111001001000000000100111111111111111000000000110111001000111111000001000000111111001101101001110110111011110000000111111111111111100100000101101111001000000111110000000111111110101111111111001100101101011111000001101100100110000000110010000001000110001000011111000;
33 : 001111111111011001111101000011011010111010000010111100000000001111011111100001000001111111000000011111111000000111111101101000000000000111000111000000000110111000000101111001100100110001111000000011111000000101000101110000000111111110011000000110000000001110100000000110000000000111101111001101111111000000001000111000000111111110000100111111101101011000010010111111000100000000110111111000000000010000010111000110100000000000000000;
34 : 111111000111100110100111100111011111110000100110100000000011000111011001010000111111111000111000010111101010001000000100110100010111111010010111100000000011000111110000110100100111101001000000000010111000111000100011000100111111111111000111111110110110000111100000111000111010111111011011101100110000000111000000110000100100111100111000000000110110110111000111101000110111100111111111111111000100000000010011011000111000111000000111;
35 : 000110111011000000001000010111111010111111100001000100110110111110100110111110110111101101100000101011111000111111111111000000000001000000000001000100111101111000110110011011011110111100110000000111110110000001100011111011000111111111000000100110111011001000000100110111101100000000000111111111011101110100000100111000000110111110000011100111000000100110110011111111000111110000000111111100011000010111111100100101110100000110111000;
36 : 111111001111111000001001001000000000001111011001111100111111010011011001000011110100110111111111111000000110111000111111100100111011111111111100000110111111101100011111110111110100001111111011001001100110110111001011000111111000100000001001111100111111100000110000111111011010000111111001101101111111111011110100100001001000000100111001111011111110100111111100100100111111111110101101100110111100110110110000000001001000110111111111;
37 : 011000000111100010001111111010000000111011111001001001000000000000011000100100111001100000001011000100100101010000000000000000111111000000001001110100100000011111000011100100111111110110100110011000001101111111000000000000000111100111001001001111101111111111100111010000110110111111111000111111000000000101111001000000001000100001111000010010001111111000000111111111111000000000100100111001001111000011001100101111111101111000000001;
38 : 011011000000101111110111111000000110111110000111101101111011011111000000000010100000000000111001001000001111111100000100100111000111111000000111001000000111011001001000100110111111001000000011000110111011000011011000011111111010000000100110111001001111100001111000000000110001000011001000010010010110000000010010010111101110000000100111000000100101111111111111000000101001111111010111001100100111000011110110110000100101111011111111;
39 : 000010000000100111110110111011001111100111101001011000010111000000110111010000111100100000000011111110111111000000000000111111000110111100111111111111011000000111111111000000100111110111111000011111001001111000111110100111111011000111100101111101011011001111111010011010000100111111111111000110111011000111100111100000111111111111111000010000111111110110000101111100111000000111001001111001000111011010000010000000010000111100000111;
40 : 110001111111111111000110011010000000100110111000000111111000111100111000111011000000100111100000000110111001111111111101100111111111000000111111000111111010110000000000111011111000111010111111100111110100000110010000111001000011000000101000000000111000110000100111110111101001000111111000111000000000000000101000000111111011111010010111111111000001111000111000000111111000000000111001000111011000100011111101101111111010000101000010;
41 : 000111111001001011000000001111100110001011000011001001001000111111100111000010010101111011000100111011011000111110000001011001000001111111000001000001001110000000011001011111000011010000100000000000111011011000100101111000000111011111000111111011001001001011001000000111000000011100100111010111111111000100000100110000000011111111001000110111011011001101000111111011000111111000111011111111111011001000111000000111000100000111111000;
42 : 011001001000101111100100000001001111110111000100000000000000000111011111000001111000001111000001111111110000100001001000010011010111111111001000011001011111110000000010111100000010111101111000000111111110000000111111111000000111000000011011001111000000100000000001010110101110111111111111000111111111000000000000111111100110111111000000111111110000100011010010110110000000000000110110110011110000001100111001000000101100000000110000;
43 : 111111001110010000111100100111000000001001111100100111111001000111011000111000011000111111100100000101111110111100000111110111111000000100111111000010111111001000111111110000001010100010111111110000000110100001011000000000110111000000000100001110111110111100111001111011111101000111011000001111011111001000111000000001001000111001011011100111101100010010111000000110111000000111001111000000000100111110000111001001101000000000000100;
44 : 111111111000100111111110000111111111100110110001100000000000111000001111000010001111111101000100111100010010000111011000110100000100111101101000000100110111000000100110111111111111111111111000100111111110000100100101010000000111111111101101101110110011000111110000001111001010111000000111111000001100000111000101111001001111111110110111111011111111100110000111111110000000000000111111111000000000000000111101000101000100101100100000;
45 : 101011111000100100100100000100100010011111100110010010111111111011101111011111111110011111011111111011011000000011111111111000000000000110100000011111111001000000010001001111011000011001011110111111111110000001100100111111000000000111110110011110010011111000011110100111000000000111101111001000100111111100011100111110110111100110100111101101110000000111111010010110000011111010001000000100100000001110111011011000000110100111111000;
46 : 001110000001101111000100001111111111001111011101101000000000000010111111111101111111001000000110111011000110000000000000011001000000111110000000111101000111010111110110000010000111101111100010011111111111111000111111010000000111101111110111111110000111000101111000000000000110111111101111000111111011111111000111111000001101111111101000010000111011000111000111111110000001111101110100111000001101100000010000000000010111111100110111;
47 : 111001011100110111100100100111110100100110110100110010100000111111101011101101111000111111100000000110111110111000111101111111111011001001101111100100111011010000000001111111111000111011111001001111110100000100000111111000000011000000101001000100100000110100101111110110111101000111101000000000110000000000100000000111111110111100000100101111000000011000111000100110111111000000110110100111110000101111111110100000111000000111010000;
48 : 111111110000000011111111111101110111010011100111111110001000000111111111000000000000000110001000000001111111011111111000100001011011111001111111111111111000000000000000010111101101000000000000111101111101111001000010000000000100000000010110111111100001000000000000000000011011000000000001111010011101011011000001100000000011111011000100110000101111010111111000000000000111110000001100000111111111000100111000000011111111111101101000;
49 : 000000000111111111000011010111110000111010111100000010111111111000010000000111111000000111000111111111111111101000000111101100111011001111000000010000000000000100100101101000011001101111111111111100111011000001100101101111111111111111111110010111011000101111101100111101111100100110111101011111100000000000011111000011101111000000000111100010100010100001110010110110000000100100000000111111010000001111111001111111001010000111110000;
50 : 000100101111110111011000000100000000000111110000000000011101101000011000111110101000011110001111111000110110000000010011001101000110110011000000000001000000101100111110111011000001111111111110010000011000000000111111111111111011001111011010000011111111110000000111111111000000111111111100110100110000000000001111111111011111100110110010011001011001000011111111111110101000101111000001111000000000001000000111100110000000000010001001;
51 : 100111110000000000111111111011111111000101111111111111110010010110111111000000111001001000100000000100010000111111111110100001111001111111111011111111100001001000001001001011001000000000000110101100101101010000000000000000000000000010110110111111110010000011111000000000111011000000001000110100100111111111100010001000001111011011101111111010000011111111111000010010000111000000111111110111111111101111011000000011111111110101111001;
52 : 000000000000011111111110000010110010000000111000000000001011011100000111001111101000000111000001111110001010101010000000000101000100010101000000000111110011111000100110110100010111011111111111111000110000000010001001111111111000100111111111000110111110111000000111111111000000000111111101011001111000000000110101111000001101000011111111000110100001000101111000100000010000110111000000111111000000110111000001000101111110000111010110;
53 : 110111111000000100111111111111111101001010100111111111000010101111111111000000111010010000010000000010110011011111111010110110010010111011111111111111111101010010000000000010000100000000000111111100110111111000000010000000000001000000010111111011111001000001100000000000111111000000000000000000110111101001010010001000100110001010111111111000101111001111111001111010011110111000100100010111111111000111111000000100111111111111111100;
54 : 000110010111111111010000000110100000000111111000000001010010000000000000101101101011111111101111111100111111100110110000011111000000010111010010000110000101000000111111111111110001111111001111001011001011000101011111111111111111110101001001000100110110011001000111111111010110111111111101110100100000000010001001111111110101101101001000000100000000000111111111100110111001100001000000110000010000001000000001011111000010010111000111;
55 : 111111000000111111101000000000010100111100010000111110010111111111111000000001111111000101111111111111111001110010101011011101110101001111011000000111111010001101111010000000011111111111000001000000000111111100110011101101111000000111000001111100111000110111011111111111111111000111000011001111101110111111000111000111111001111111111001000000110010010111110000001100101011111111000111111111111111000000111010000111110101101111000000;
56 : 001111011100000111001111111001000111101111011100111111111100110111111000000100111000000000111000000010110101000111111111100111000011011000100000111001111010000111010000111111110100000000100000101101111101000111010111000111111000000101111111111001101010110111010000000110000000111111000000001001101011111111101111000000000010100111000010111000000101111000101101101101000100100111111100100111111001000101111000111110101101101011111000;
57 : 000000000000000111101111111111000101000111010000111111100110111111111000000000111000000000000000000000111001000000111010010011000101001000000000101100111111111101001000011110110110000000110010111111111111101101110110011111111110000110101111111010111000101010000000000000000111111111000100011110110100000001101011010000000010000010010000111000111111101000111001101011100000100011111000000101100100000111111010011000101111111111111000;
58 : 111111001000000111111111011011111111010101000111111110000000101111111101000100000001011000000000000000111101001111111100010110001111111010110111111111111000100111000000001001011000000000000101111101100111111100000000000000000000100000111111010001011000000000000000000000111110000000000000101011001101110011111001000100000001011001011110011101001011111111000000100110011111100000111110000111111111011111111000000000111111111101001000;
59 : 000111111111000000000000000110110010000000111000100000111001000110111111010101111100111111101111111110110111111000000111111111110011010111111111110010000110010000101001101110000001111111111111111000000000000000001111000000000111111111110010000100000001000000111000111111111010000111111000100010111111111111000101011111001111111000001111111100010011000111111011110001101000010111000000110011011000001000000111100111111000000101111000;
60 : 111111111111111000100000111001011101010011001101101111110100110111111000011111000110111111111111000110010010000001111011111001001111111000001111100111000101110100010010000000110101111000000000000111001100100111110000011000000111111000000111110101110111010001111111000000111100111000000000101110011111111001110000111111101001110011000000000111100100111110000111000111001111000000111111000110111111000110101000011011110110110000000111;
61 : 111111111100000111111010111001111000111111000111111001111011001111111110011111111100111111000111001011010010001000000111001010001011100111011111001011111000111111000000000110110000000111100110100011111000000000111011110000000111111110111010000001111101111100101100000000110111111000000000110001000111111111101110000101111111010010001111000000011111111101111111111111000111111111101111111000000000101111111111110101000000000000000100;
62 : 000100110011011011100000000000111000110100101000100001111111001000110000111111111111111111100111111111110010001001000100010111110100000000100000000100000101111011111111111000111101111111111000100000010000010111111111111111111011111111100110000001011110111101000101111111110111111111111111010110001000100000100111111111111111010011010001111111000100000000011111100110111000000111000000111000001000010011000111111111000000000111111111;
63 : 111111000000111111110000000100011101100010000000111110101101010111111000000111111111100001111101111100111100000011001011111101000111000011000000001111111111010000111010000011100111111111000100000000010110100000111011111111111000101111000000111100011101111111000111111111111111000111000111100111111100011000101011000111111100101100111101000000011000000111111000001111111101111111000111111110111111000000111000000111101001111111000000;
64 : 111111110000000000100111111000011111001000011111111011110100010111111111000000110010000000100000000011001000010110100111101110011011111000111111111111001000011110000000100000000000000000000110011111010111111100000000000000000001000000001011010001000010000100101000000000010111010000000110110110000111111101010010000011011111011100111010111111101111110111111000000001000111101000111111001111111111001010111000010011111111111110101001;
65 : 000000101011111001000000000000000000011111111000000011000101001000100001111111110101111100111111111000100101001001000110101101001000001110010000000100110011000000111111110100110000111111111100000011000000011111111111010111111111111111000011010111011010111111010111111111000000011111101101011011000000000010001111111111111100100101101100001111000000000000010011101000101100110111100111011000000001000000000111101010000000000001001101;
66 : 111111111000000001011111111101101100110100110111111111111110100111111111001001000010100000000000000000000001101111111001000000110111100001111111110000101001011011000000000111010010000000000100111111010101111000000000000000000111010010101011000110010110000010111000000000110110000000000000101010110111111111011001000110100110100101101011111000000101001111111010000000100001110000101011000111111110001111111000001101111111110001001001;
67 : 000000111111010110000000000100100000100111111000000000110111001000010000111111001011111011111111111111001101011000000000001011101110110010011000000000011110000001111101111000011011111111111111100000000001000010011111111111111111111111100110010011011001111000001011111111000001010111011011110010000010010110111111111111001101001011110111000100010000000000110111110100111000100111010111111000000000110000000111111101000000000111111111;
68 : 111101000111111111111111011011000000101000000111111110101011110111000000111111111111000001000100100101100110000010000101011110101100100001111000000110110111001100111001001011110110100100001111111110111000000111101111101000111111011011001101110000100011111011011110100111111111101000000011011000101101101100110110010111011001000110111010000000110111111100000010111011110111111111101111111101110110000111111011001101110110110111111000;
69 : 000000010110011000100010110101000001011011111000000011110001011000000111000000000001100000111111000010001110101111111100110111011001011000110000111111000000100000101111111001111110011000000000010011000111111111011110101111111000000000000001011111010011000010011101111111101010000111111111100100100000000000000110111010000010111111010001011111110000000000000000000010011111000000001000000111111111000000000000000000111101111001101111;
70 : 111111010000000100101111111010111110110001011111111111010101011111111011000000000001000010010000000101100100100111110010001010101111111101111111111111100110101000000000000100100000000000000110111011010111011100100000000000000010000110110110110100010010000000111000000000011100000000000000011001111111111011100111011100100100100010111111011000111110100110001000000001011110000000100101101111111111001101101001000000111111111101111000;
71 : 111111001111000111100101111010000111111111000111111111110110110000111000010000100010010000011000000110111110000100111011111011101101001000000000111001111000000111010111010000000010000010111010101101101111111111110110111111111000000101100100111011100010000110000110100000101111111000110110011100100010111111001000000000000010111110010000111000101111111101111101111101001111111111111100111100101111111111111111010100101111101101100000;
72 : 111111011000000111000111111011000111100010011100101111101000110111111000000000111110000000111110000110111100000101111100010011001001011000000000111011001101100111001000011111010110010000000000101101111111111011110000101111111000000000001101111000110101110100110000000000111000101110111000101001111000100000101111010000000010010011011000101000100101111100000111101111111111000000111111000111111111000000111000000010111111111000111001;
73 : 110111111000000000111111111101100111001000000110111011000100111111111111000000010110110000000000100111100010000010001111000000000111110111111111111011000010101101000000000010001100000000000101011000111111011000000000000000000010000000011110100010101011000000111000000000100100100000000100100000001111111011100010000000000111100101110100111011110111101111111010001000000101000000111111000111111111111111111000100100111111111000111000;
74 : 111111011000000100111111111101111001000011010111111011010100110111111111000000011000000001000001000001100101100101111000111011111100011111111111111111110010111111000000000101111101000000000000111011100100111000000000110010000010000010101011111110000111000101111000000000111011000100000100100101000010111101000001000010010010011000001110111100011011111011011000000000010111001000011011011111111111000100111000000011111111111011011001;
75 : 000010111101000000010011000111010010000010111000010000101010011000110111111111101100111111000101111000110100111011000100000100000110110111110001010010000101001000111101001100100011111111111111101000000000000001100101100000000001101111111010000111111000111000001101111111010000000101001000000011111000000000101101111001001101100010011111111000000011000111111111100010011000000111000000111000000000011001000100101111011000000111111001;
76 : 111111011000011111000000000101101011111100000100111101011011001111011000000111111111110111101111111000000111111011000010100101011010000101110000000010000000000010111011011110011001011001011111011000010110000000110101111111111000001111100111001000111110101111111111111111111111010111000000010001111101101101011111000011111111111100100111101000000010010101111111010111010100111111000111111100111011000000111010000111000111000111100000;
77 : 111111101000000000000111111001111111111001000111111111001001000111111111000000110000001000111011000100111001010111111110110001111011111000001111111101100100111101000000100001000010000000000000101111011101111110010000111000000000100000101101111100000010000010111110000000111101000000000000100011000111111111011000000000000000011110001111100111010001111111101000000000110011011000111000011111111111000000001000001000111111111011101000;
78 : 100000000000000111111111111011000011111111001010100111110000111101110000000000111010000000000010011000010000000001000001001011000101101000000000100100110111000111001001111001010000000000011111111010111111100111110111111111111000000011101111111001101001011011000111111111111111111000011111010000011110101010110110011000010001101000011011111000011111110110110111001010001110100111110000000111101110000000111010011011111111110111111010;
79 : 000000000001111111110110000001110011100001010000000000101000010100010000000111111000000101010101111011110011000000000000101011110100000111000000000010110010010110111111111000111101111111111101010000111010000010101111111111111000101111111010011011110000111000000111111111100000111111111110100111111000101000111100011101111100100111101111010000110011000101111101111000101000111111000000111000111111000111111001001101011110011111001000;
80 : 011101001110110001111111111110011110011001000111111110010100110111111111000000100001000000001001000011001001111111111000100000111110101000000110111111100000110100000000000000101100000000000001101001001110111111100000000111000001000000111110111011000100000000011100001010111101000000000000110001100111111110000000010000000011000100010100110000010001111111111110000010011111010000111111101111111111100101101000000000111111111110110111;
81 : 111111000111111111000100101101101101111100000111111011101001000111000000110111111010000000011110000010010011001001110111100101101111001001011000011001111010010111010010110000000110010100110001111111111001000110111111111101111111111111101111111011110000100111111110110000111111111000000110111100110101111000001110000111111011110000001111100000000111111000000001110111011100111111111111111111001000000111111111110000000000111000001000;
82 : 111111111111111000000000111001111101011001011111100111101100110111101111111011000110111111111000000101001011000001111001010000101010100000001111111000000111101101000000000000011000111000000000000111100101100111010000011000000111111000001101100100010111010000111100000000110000111000011000001000000111111110101001111100010000000011011000000111000100111100000111010010000111000000111101000111100111111111000000011010111111111000000111;
83 : 111111111111111000100000111110010101111000001111101111110000101111111111100111000111111111111111000010010011001001111001111000000101101100000111111101001100111101011010000111111111111010000000000111000000111100010000111000000111111000000000111111001111010010000111000000100000100000000000101101111101001000111000111111001010001111000010000111010100111111000111000000000111000000001111000110111111110111100000000000101111111000000111;
84 : 111111001000111111111001000000001111100111000101111111101011101111000000000111111111101110010001111101101010101101000111000111000011000111010000000001101011000111111111111000100111111101000011001000101010000101001111111111111000111111000110011111111011111110111111111111111111111111000000000101111110111111111110000111111111110111101111000000010000000111111110101111011001111111100111111110111011000111111001111111100111000111000000;
85 : 110111011000000011111111111000011101001110001111111110000110100111111111000000001100000000000000000001000011100011101010111110100110001111111111111011000011010011000000000110111000000000000111111001111101111000000000000000000100000000111111000010101011000010111000000000111111001000000111110001110111101101101000000110000100010000011011111101011011011111111100000100000011001000111001010111111111011111111000001001111111111101101100;
86 : 111011011000100111011111111000111111011010011111111111000110110111111011000000100000000000100000000100000000011111111111110010000010001000100110111011001000010110000000000100010111000000000111101010011111111011000000000000000000000000100100111101100100000010111000000000100111101000010000001010111111111101001000000000000100111001001000011011011011100100001100000000001111101000111011010111111111001111111000001010111111111011110010;
87 : 111111001011000111011111111001000111011100000011111111010100111001111000000000101010010000000010000010110010000001011010011111010111111100000000111001111110110111111011111001110110111110111000110000010011111101000100111111111000000100000001111011111000111000000110100100111111111111110000000000110110111101111110000000100000111101100000001000111101111111111111111110000111101111000011111100111111001011111011010010100111111101100000;
88 : 000110000000001111111100000010011010101100001000000110011110001111111000000011111010001001100111111110111001111011000101101111100100000111000000000100110000010111111111001100011111111111001110010000010110110000101111111111111000101111000011110010100100001011111111111111111111000111001001100100101100111011101100000111111011110000111111010000110010010111110000101101101000111111000101111110110110000000111000010111111100110111011000;
89 : 111111111000010010110011111111100111101000001111111111110000001111111101000000001000000000001000000100100100011011101100111110110111110000101111101111101110110000000000000101100100000000000000010111101111101101000000001000000100010000000000011101001000001000111000000000011000000001000000010111100111010010010000001000000010011111011000111001000000101110011000000010100111001000111101001111111111001110111000000000111111111100100000;
90 : 000010111000110111000000000101100100100100111000000011110110010000011000100110110101111101101111111101101101110100000111011011011000000110011001000010100011001000111111111001001100111111111000000000010011110100111111101111111001111111001001000001011011111010000111111111000101111111111111100101111000000011111011100111111101101010100111110101100100000001001011100110110000101111110111111000000000000000000011101111001000000011111010;
91 : 111111001000000101111111111111110111000110000111111011000000100111111001000010011011101011010000000110010110111111001011000010100111101000101101111001111011111111000000000010010010000000000000111111110110111000000000000000000000000000001101111111011000000110000000000000110100100000000000001110011110110010001111000000000110111010111110111011100110111100100101100000100001000000111101001111111111001000111001000010111111111111111001;
92 : 000000000000101001111010000101111011010011111000011000010111000000011110000101111100001111000001111111101101101010000000001110000011010111000000010011100011111000100101111111001001000111111111111000010010000010101101111111111000111111111110010100010001111000000111111111000000000111110111111010110000000000000001111000101101000001111111000000000001000010010000000100011000000000000111110111011000111100000110000100111010000111000011;
93 : 000000100011111100000000000000000000011111111000000010010111110000001001111111000110100101110111111101001111111100100111101111001000011011001000000110000111000000111111111011001010111111111100010000100001000101111111111111111011101101001011011011010111111111011111111111011110110111111001000110101000100110111001111000100111110011000111010110100100100110001011111001000110111111000000010000000000000000000111101101000000000111110001;
94 : 111111000011111111011011111001111001111010000111111011001111110111110000000010100010010000111000000100111110001001111111101101110111100111111000110111111000011111100000000000100110010000000000101001000111111001100011101000001100100100011000100101101000000000000100000000111111111000000111111001111111100101111001000000010000111000111000011000011101111111111000010000001111111011111011111101111111110111111011000000101101101001000000;
95 : 111111111000000000100111111000110010011111010111111111000000000101111000000000011010110000000000000100101111101001111111001101110011100101111111111011011100110000000000000101011010000000000000111111001101001000000000000000000101000000100100111011100110000110111000000000000001001000000100100000111111110110010001100110010100111010011100111100110001101100111110001101010111000000111101000111111111110111111000000010111111111011011000;

END;
