--Memory Initialization File

DEPTH = 270;
WIDTH = 48;
ADDRESS_RADIX = DEC;
DATA_RADIX = BIN;
CONTENT BEGIN

000 : 010000000100110101000011001011100001001000100110;
001 : 100010000100111110101000110111000001011110011010;
002 : 010110000000110111001010110101111110011010100011;
003 : 010010001110110111110100000011111110001101101110;
004 : 110100001000100001100100101011110010000000101110;
005 : 110111011000110111100000101010011010001000111011;
006 : 010110110110110100111011110011011100001100110111;
007 : 011100100100001011001011100110101100000000100110;
008 : 110100001010110000110101100000010000001001000010;
009 : 101100111100010011011111101001100000101110111111;
010 : 100101001011011001001010101101010000100000011010;
011 : 100011010101001111001011010000011100100100101110;
012 : 101101001001000101011011101110000000000001111110;
013 : 100100110100000001001111111110000000111010010110;
014 : 001000001111011111011101100000001111110001010101;
015 : 011101010101101111010101001001100100011011010101;
016 : 111100111111101110001110001001000000001100111010;
017 : 110101010011110000100001100000001100011000110111;
018 : 100011011001100111101001110111001011011110001011;
019 : 000001010010110000101101101110110111011011100111;
020 : 000010100110010110001010001110110100100001101010;
021 : 100101101010000000110010001001111011011111100110;
022 : 100011111100011000110000111111111111011111101110;
023 : 101010101011110011101001001001001010111001101111;
024 : 001001111100100010011001011001000111000100101111;
025 : 111110001001010110100100101010101000100001111010;
026 : 110000101100111111100001100011000111001100101110;
027 : 011000101101111101000011110101100111001111100011;
028 : 111000111010111011001011110100110111001111100110;
029 : 111011110111111101111110110101001110101101001111;
030 : 111001001100101101111100110100010111001110101111;
031 : 110111011100101011111011110001101111001110111010;
032 : 110010111010111011001010110010101010011101000011;
033 : 000010010110111011100011110100111110110110101011;
034 : 100010001101001010100011110110101111111110001011;
035 : 110010001011111101100011100101010111001110100011;
036 : 110010101010111101100010100100100111001100100100;
037 : 101011000100111011001000100110100011111100101110;
038 : 001000000101111001001010100100010011101101100101;
039 : 011000000101111001001000100000010010100000100101;
040 : 001010100111111001001000100000110110011100001001;
041 : 100000001010111000001101100001000111011101001001;
042 : 111000000001111111001011100010110111001101011110;
043 : 111000001011111101100100100010100011001101100101;
044 : 110010001100111000100111110001010011011100100001;
045 : 110011101000111100100111110101010111001000101000;
046 : 111000000110111100000000100100100111011000100000;
047 : 111101101000111100000110100100110011011101001101;
048 : 110001101000111000000001100111100111010001101101;
049 : 011011101010111000000001100100100011010001001001;
050 : 011001001010111000100100110101100011010001101101;
051 : 010000101110111100100100110111010111000001101001;
052 : 011010101000111000000100110110010111001001100101;
053 : 110011101110111000100001110111010011011100101001;
054 : 100100010001100011100010111101001011000110100100;
055 : 101100111101011010000001101101011111000100111001;
056 : 011111001101101001111010100010100100001010110000;
057 : 111100000001000011000100010100011001011010011101;
058 : 101110110101001011001111010111011000101100000000;
059 : 111011110101100101001111000100111010100010101000;
060 : 111101110101001111101101010100100001001110101100;
061 : 010001000101100011000111100110111110000010110101;
062 : 110111110011000111000010011001010100000010000100;
063 : 100110100000010100001011000010101001100001111100;
064 : 100001101001010110101011010000111100011101111100;
065 : 110100010011110101001000001101111001100100111000;
066 : 100100000000011001110000000001110101110101001000;
067 : 100010010001100011010001000100011001000111111100;
068 : 100100010001001100000011001011110100100000100101;
069 : 110010100101010001100000011101011000100001010001;
070 : 110011101010101011110001101100111110101101010100;
071 : 000100000110000101101011011010011011110100111001;
072 : 000001000101010101111010000001100111000101101010;
073 : 010001101000001011011011010000000010110101100100;
074 : 110000010110101101011010010011000010100010111101;
075 : 111111111110000001011110001010010100110100001110;
076 : 111110001001000111011010000011000110110000100101;
077 : 100001001110001001010100001110110101101111101001;
078 : 111010010011000100111010100101101010110100001000;
079 : 101000101110000000111111111001000001111000100101;
080 : 000110111100010101011100001101010101100101001111;
081 : 101100000111000010011100000010110010100001111111;
082 : 100011101001000001010001000010000010100000001101;
083 : 001000111001000010011010000000100011110001110100;
084 : 000000010110000010111001000100100110100000111101;
085 : 100010010101100011111110010001100000100001000111;
086 : 101011101111000011011010000011011110000001110010;
087 : 000001111011110110011101010010100010001000101100;
088 : 111010011001110101110001000011100110110110100101;
089 : 101110010111110111111000010110010011110001111010;
090 : 001100110111001110011100010111001010110011111011;
091 : 011110011001001011111011110100011111100110110000;
092 : 110110111001001111111011110101011111111111111000;
093 : 011110011111001011111011110100101011110110111111;
094 : 111111011101111011011011000110001110100110111111;
095 : 011101111001101110011011110111101011110111111101;
096 : 111101111101111011111001110100011110111111010001;
097 : 111110111101001011111011100101111011111110010011;
098 : 101100110001001010111000010110111111100010111110;
099 : 101001010111001110011000000100011110100011100111;
100 : 010001111011001110010111100101011010110110101011;
101 : 110001111111001010010001110111001110110110101011;
102 : 110011110101001110111100100101111110100011001111;
103 : 111000010011001110010100010101101110110010001011;
104 : 110100111011001010110110100110111010110011101011;
105 : 110001011001001010010101100100101110110110101011;
106 : 110000110101001110110000000100101110110010111110;
107 : 001000010111001110011100000100001111110011101111;
108 : 101111010001000011000011000111101010001000110100;
109 : 101110011101011011101111100110010111001100110001;
110 : 111101101111000111101010100101001100001100011000;
111 : 000110000001000011001111011110111101001000111000;
112 : 111010100101100111000111010111001000101110010101;
113 : 111100110000001011001101000110011000101011111000;
114 : 010101111101000111001101000110101010001000111101;
115 : 011110100101110111100011110111110100001010010000;
116 : 010110010111000011111011010100001110011000110001;
117 : 100101101000100101101011000100001011001111000100;
118 : 110011101100110000001001001110111101000101111100;
119 : 110000011011100101011100011101101111011110110000;
120 : 110100100100010101000000001101111001000100101100;
121 : 100000011101000011010000110001110111111110001000;
122 : 111111010101101011100101001100111001001000101001;
123 : 100000101101111111100000001101001110000111000101;
124 : 110011101010011001111001101000101101001101110101;
125 : 000100001110000111000000101110011101001110011000;
126 : 111000001100000001001110001000101101110111111000;
127 : 000000101010010111011010110011010010100101101100;
128 : 101000011100000001001011111011000010111001001001;
129 : 111101011110101101111010000111000100110000111101;
130 : 110100100011100011010011001010100001100011000001;
131 : 100011011110011101011110001011011110000100111101;
132 : 110000111001000100110010110111100000110011101001;
133 : 101000001110000000111001001001111000110001101101;
134 : 010110100110010101111101111001000001000111010100;
135 : 111000111010010101100111101100100000001000001101;
136 : 110010011011000100011000000010000011100001110101;
137 : 000001001101000000011001010000000011100001100100;
138 : 111000111110011010111010101000100010010000111101;
139 : 111011011101001101111100010010010110100001100101;
140 : 001000010110100001010011100011100111001001101001;
141 : 001000111001011011011011001000100111011101001001;
142 : 110010011001111001111101110011010101110100100101;
143 : 111010101100010101100001101010010000011100101101;
144 : 111011111101001011010001111111111000001110100011;
145 : 011010111001001111110111100101011100001110101001;
146 : 111000001111001011100011111100101010010100001011;
147 : 011011101101001111000011101111111110011111101111;
148 : 110011011001001010110001110101001010010110001111;
149 : 011011111111001011110011101100111000001110100110;
150 : 111000101011111010100001111111010000001110101111;
151 : 100000111101001110100001100100111110011011000000;
152 : 111001011111001011010011101100011110001110100001;
153 : 011100011011001111010101111101011100011110111111;
154 : 010101111011001111010111111010001000011111111010;
155 : 110011011101001111010001101101011110011111111110;
156 : 111100011111001111010101101100101110001110111011;
157 : 011111111011001011010111101111101100011111011110;
158 : 010100011001001111010101101110111110011110011011;
159 : 000111111001001011010001101100001100011111110011;
160 : 010100011111001111010101100100101000011111111011;
161 : 111100111101001111110001101100101110011110111110;
162 : 000011111001001110111000111000010010100001101011;
163 : 101000100110001000010100001000100000100111101111;
164 : 101110100101101100110001101001001111100010101111;
165 : 101000011110111000011001111000110100100010001110;
166 : 001010101001000000111000101000000001100000000111;
167 : 011100101101100100011000101001001011100101101010;
168 : 100011000101011010111000101110110101110010001110;
169 : 110001110110010000101010011011110011110101110111;
170 : 110001001001101000011010101011100101110011100111;
171 : 111110010111101100010001100100110010110101001111;
172 : 101100110100011111110011000011100011100100000111;
173 : 100110100100101000010100110011011011110100101010;
174 : 110001110010001101001011110010111011100000011011;
175 : 111110011110111000000110000101100010110001101111;
176 : 100110101010011110111010111011010011100110100110;
177 : 101101010001001100000101100000010011010101101111;
178 : 000100110100111101111110100000100111101000101010;
179 : 011000110001011011110110111110100111100110110011;
180 : 110110000100011110100110100110101010001010010111;
181 : 110101010111111100000010011110101100111010101111;
182 : 011111001101011000100011000100000001001011011010;
183 : 111110000101011111100010101111000110101010111111;
184 : 110110000111011100100011110111010100011010001111;
185 : 001101010001110001000010110111001111001011011011;
186 : 111110010110010111100011001101011000101011110011;
187 : 110100110001111100000011010110101000001110110110;
188 : 100101010010001011100100000101101110000000110011;
189 : 100101100000001010101000000000100000111001111110;
190 : 111110000100001110101111000001111000011000110010;
191 : 010110010000011010000101010100111101011100001110;
192 : 111111100110110011100000000111101100001100010011;
193 : 101101100000000001001001000000001100011011111110;
194 : 010101000000000010000100010001101110111000111110;
195 : 110010000110001101000010000111011111011111111011;
196 : 100001110010010110101100000110011101001010101111;
197 : 001100000100010011001010010101100101001001110010;
198 : 001100000110000110001100001000010100110001011111;
199 : 001001100000000001100000011001110000010001111111;
200 : 000011100110010001000010101010100100100000111011;
201 : 000000100000000111001110011001110000011000111010;
202 : 000101000010000111000110011011010110101001111011;
203 : 101010100010000001001000111001100100111000110111;
204 : 001011011000000011000010101011000110010000110011;
205 : 000011100100000101101110001001010000000001111110;
206 : 001101010010000111001000001110100000100001010111;
207 : 101100010110000010001000001010000100100001111111;
208 : 100111000100010110001000011001010100110000111011;
209 : 100100100000010100100100001001110000100000111010;
210 : 001101010110010100101000011000000000110000111011;
211 : 001110010100000000001100001010010000100000010111;
212 : 101111100110000100001100101000110100100001011111;
213 : 100110100100000101001010101011110100110000110010;
214 : 100111110010000001101110001000110000110001111011;
215 : 001100010110000011001000001010100100100001111111;
216 : 111000001000110100010101001100010100000101001101;
217 : 000111110001010101010010000011110011101011101111;
218 : 100010111100011100010110010001001011101111001110;
219 : 100100100100110101011011000001100111100100100011;
220 : 111110011010011000000000001010111010100111111100;
221 : 100010101101110000110000011000100111011001000101;
222 : 010100011001011111111001101000000011110110101100;
223 : 110100001000111000110100101001000010100101001110;
224 : 101101110110000000111001110010010101101100110001;
225 : 100000001001010011011011001011000001000110011001;
226 : 111110010110101010000010101110000000000100110001;
227 : 001101001101111110100001101000000101100010000101;
228 : 100010011100110010111101011001000010001000101101;
229 : 111110100011100110011001111001010001010000111100;
230 : 101101110100110010000010100101100000101011111001;
231 : 000101000110000110111010000011110110111000001000;
232 : 111101000100111110101010111111100100000010111001;
233 : 100001101010110110101010000001100000100001000101;
234 : 010000111111100110001000101010110000111010101100;
235 : 111000000000100101111100101111100001011111011100;
236 : 110011011101111000101111111110111110111010101101;
237 : 111010110110110010011010100110011101001001001000;
238 : 001001111100110100011010101111001101111000111100;
239 : 111010011111101111100011101010110100011111100101;
240 : 110100101001101001010100001011011111111101100110;
241 : 110110010101110011001010001010001110101101111001;
242 : 010000111011100000001010111010111100111010100101;
243 : 111110111101110110110110111101001101010011010001;
244 : 011111010000000110000100111100111100110010011111;
245 : 110110101110011110100010001010101100100010110011;
246 : 010101100000010000000001101000001000010011111110;
247 : 010100010001101010000110111101011100100010010111;
248 : 101110111010100010101100001101101000010010111000;
249 : 011101010000010010110011101101001000000001101110;
250 : 111100110100101110100010111001101100000011110110;
251 : 111100010011100110000100101000111000000010111001;
252 : 010101110000110000100101001001111001010011101100;
253 : 000101000110110100000001001000011001000010110101;
254 : 010110000000110000001000001001111101010010011011;
255 : 100100100100010000100101001010101101110001001000;
256 : 011101100010110100001111011000001101010010111100;
257 : 110111000110110100100000001000111101010011111101;
258 : 100100000110100000000111001010101100110010101000;
259 : 000111000110100000001101001010101001000011110001;
260 : 100111100000110000100011001000111101000010111100;
261 : 100011100010110100100101011001110001011101101001;
262 : 001001000110110000011000001010000101101101101000;
263 : 101010000110010000111010011000100001101000001100;
264 : 101000100100010100101101001010110001000100101001;
265 : 000011100010010100001000011010110101111100100001;
266 : 100010100100010100001011001010110001111001100001;
267 : 100000000100110010001000001000010001101000001101;
268 : 101010000110110000000001001011110101101100100101;
269 : 100011100010110100100111011011000001011100101101;

END;