--Memory Initialization File

DEPTH = 48;
WIDTH = 108;
ADDRESS_RADIX = DEC;
DATA_RADIX = BIN;
CONTENT BEGIN

00 : 000000011100110010101111111011101101101111101011000000011100101000111000001011011000100111100110110111100001;
01 : 010010000010111111000101001100110011000110110110100000101111011100011000101111000111010110111111000010000000;
02 : 000000110000100100000000100000001101110011001101101101111110111101110000100100100110000011010111000010010000;
03 : 000000100100000100000000000000000110111011000011011011111011110110111100010010000011000001010110100111110111;
04 : 001001111001111001001101100011011111000011011000011000001001011001111100101101101011001101001011011011010010;
05 : 001001011001111000101110100011011101001101001000000010001101011011001000100110100010001111101001010010011011;
06 : 010010110010111000000111111110110110111111110111100000110100111000111001001011011100000111110110110111100100;
07 : 010000101111101000000101111110000000000111111110000000001001000000111001100110111011111110100011101100100000;
08 : 110100001101101100001001111001110110010100100100000100100100101100101000110111010111110110010001101110100100;
09 : 111101101101001001111111110111001001110000100110010000011001001001001001000001101101001111010010011011011011;
10 : 101111001010010111110000010110010100001001001110100111000001000011111111100010011100100100100000011000001011;
11 : 110000110110011000110001111000100110011011110000100000010010010111111010001101011010110111111111100110100100;
12 : 011001000000000000110110010000000010010101001100100101111011100101111111001001001001000000000001001110111111;
13 : 110100000011101100110000000011011001000000000011111111000100101111110110011011001000110010110001001000110111;
14 : 110010111110111110001011000000111100000000000110111101000000111100111110011011011011011001111000000100000000;
15 : 001001000001111111111010000001111100110110000101000101000000000001101111101000010101101101111101010100101101;
16 : 111000000011111111100111000110011011001000000111111111100111000101011111100100000101001000110100000000011111;
17 : 000100000111100100001001011111110111101101011101100100000110100100000000110110110100100000100100000100100010;
18 : 000000101000110110000000010001000000111010000011110111111010010001101101010000000000011001010110100111111111;
19 : 111110000101101101010010110001011101101101001001001001000100101111011111000000000111101101100111111001101111;
20 : 000010010100111000011111111111101000000000101100000000011011101001101001000000110110111011110110110001100000;
21 : 100100101110100000110110011000000001101000110100110110110110100100110000001001011000000111000000100010100101;
22 : 110010110010111100001001000000111000001001000110100100001000101101111010110100110110111011111011000011011011;
23 : 011000111011011000101101101100111110011111111011010000011010110011011001100111101110011101101111010111110000;
24 : 011111000011001111100000000001011111100100100100100010010000000101101111111001001000101001111110000000100001;
25 : 100001010011111000001111101011011101110111011011010000000111011111111000001001101001000111011010000011000010;
26 : 011011100100000111010010000000000100111011011101001111110110000100100111101010000001101001000010000001011111;
27 : 001111100001110111001000000101000000000100111111111110100110000000100111101001110101000000001101110111101110;
28 : 001001010001001101000110100010011001001101111000000001101001111001011101100111110011011100100001011010010000;
29 : 001011011000100100111111110110110000000000001100100101000001100110011011100100110110110110100110010100111110;
30 : 111100111100111010001011011100110100010010000110001000110100110110110010001001011111110111011000000100000000;
31 : 011111110001101111000000000110100000000001001111110111100100100000000010111001110111100001011111110100101101;
32 : 110101001111100100010101111000000100000100111010010000111001001000100110000100110000000110001100111001110110;
33 : 100100100110110000110111011100011110111110000110100110000111100100100000110000001000100110000011100000000101;
34 : 011110110011011001110110010011000001001010111011011001100000111000010011101001001000001011100110111010111111;
35 : 111111011010010010000011100000011110110000110111110111000000000011101111111011011010110100111001000011001000;
36 : 000010110001011000000010110011011000001101111011011000101101101000111001000011010110010011100110111111110100;
37 : 010000000111110111110100010101001111000010000001111111000000011101111110001011000101101101111011001000000010;
38 : 110110100001011001001100100111000001101100110000011100100000100000001000000001010111110111101100011111101100;
39 : 010010000110010011100000001000000001101111110011010100000000100100110101011011011000000101011110101110110101;
40 : 011010010001100101100100100001101101010010000111101111011111000010011111000000000010010000101100000011110111;
41 : 010110101001001001000111111011111011100000000000000111111110100001001011000000001001111010010110100110111110;
42 : 000001100011001001001111111111110010110000101111100000111111011000000000000011111111110001000000101011011100;
43 : 010010101110001000001001011110110100100100111100000000000000000000101011111111011111111000110110110111010000;
44 : 010010110011011110000000000000010111001001000000100100110000011011011011101100000011010011111110000011100110;
45 : 000100101111111000011111111000100100000000010010100000011111000011011001100100100000001111111111000001001000;
46 : 011010000110010111011010010111111101110010100000000100000100101011001000101100100000000000001101101000001111;
47 : 100000000000100111010000001111101110011101000011101101000111010011110101010110100001011010011001101000010110;

END;
